EDFE900D012024FFC002015
FA01D00A00200B00100B010
17FFE00C000FCF039FF2019
00009FD5011FF6FEA011009
0501AFFB00B008FFA00C00B
05000FFAF91004FFD000FFC
FB001FF3000018FD6FEB00D
F9025011FE9002006FFD007
10011FFC00D01400100DFFA
FCFEA006006FF200D01100D
04FD500B004006FFF006FF7
E6FF401C006FF001AFE7011
FDFECFD9008005FF2FFD000
01FFA00AFF101AFFDFF7FE8
11007FFBFF1FFCFF3007FF7
2E001FF7007FE7FFFFEBFF5
DCFEC00CFEFFFC00AFE600C
04FFA00201AFEFFE600DFEC
01FFD008000019FF102C00A
0C00100AFEDFECFF7FF6FFE
ECFF7012006012FFE022FFF
38FFE007013008012FEB00B
02FF9004FFDFEC001010FEE
0C003028FF7FEC00BFFF018
0CFF300000DFF2FF0009FEC
F4000FFDFECFF5FF0FFAFF2
03FEA018004006008FF8FFE
FB007FF8003FFBFFE018FF7
FF000FE8FF9FF1FF8020007
06FFE003FFEFFB00A00A01C
FC001007FFD00AFF6001FBC
0100A001FF6FFC007FFD00D
1A00E009FE702300B018FF8
0FFF5FFDFF0FFD014004FFC
0AFFE00600D01C006014003
FB018010001006013FF7FE5
1200800C001FF6FF9FEA006
01FF900600B014FF5002002
0B00DFFD00AFF7022FF9009
0C009FEEFFEFDCFF2001014
02FFE001FF5FEBFEC01F00B
0D00C01EFFE004FE5FF6009
F8FE0FCC000FFC002FEB005
07008FF0FF4FEB00B001FFA
05FE1FECFFFFF9003008FFF
F000AFF000300FFE0FE8FF9
EF008001FD500FFFA007003
F2008FF1002FE6FEB012FC4
08011003FE6FF200B007FF3
EA00CFFB011006FF3FE8FEB
13FFF007FF8001FFEFF7FFE
06023FF6005FEAFFE01EFFF
05FFBFFBFD0032005006FFC
10FF1FFAFFCFEC00AFE2FDE
E0009009FEFFF9017FF3002
16FDFFFF000FF901900800A
DD005FFFFF2FF9FFF00AFF5
EDFDBFF700000800CFEEFBA
03001FF6007003FDDFEBFEE
F5FF0FD2FF5FFB004001004
FEFF000AFF0FE3014016FF8
0CFF5FEFFF6FFA031FFCFF6
B7003001001FFEFFA006002
08FF3FFA037FDF00BFF0FF9

