00FFE
00FF4
00FE6
00007
00004
00003
0000A
00019
00015
00FED
00FFA
00024
00FC2
00FFA
00FDE
00002
00001
00007
00014
00000
00FFA
00FFF
00FFA
00FE6
00FF4
0000A
00008
00FC0
00018
00FFD
00013
00FFD
4E021
78007
7500D
7FFE7
13FDE
2500F
0C01D
78000
7000C
77013
7EFE8
7400C
7E000
01FE7
00000
39005

